solver_type L2R_L2LOSS_SVC_DUAL
nr_class 2
label 1 -1
nr_feature 62
bias -1
w
0.02009749812561184 
-0.05980622275752395 
-0.002959466306382858 
1.561580494855518e-005 
-0.01210876631340666 
0 
-0.004488595145986445 
-0.0005789393453877048 
-0.002264095626219449 
-0.001675251213152631 
-0.008311272917415701 
-0.00174475236167489 
-0.001508620980519609 
-0.002568053777646655 
-0.003799197664490777 
-0.0003296775579070373 
-0.0002871429790753029 
-0.003675236037265139 
-0.00108031108993411 
-0.00336817273299428 
-0.005408054783255011 
-0.0006099542916811179 
-6.845370001751588e-005 
-0.004067362451915392 
-0.002450807944531347 
-0.005318605499119935 
-0.001588334285266156 
-0.001147977999049243 
-0.001465157312516988 
-9.233055984534184e-005 
-0.001759985911580207 
-8.867328210771521e-005 
0 
3.07539662243448e-008 
-1.245021211542878e-006 
-7.767742939755776e-024 
6.858167383374224e-024 
0 
-1.019321559664469e-006 
5.880737167369181e-025 
-5.425461416595655e-006 
1.37247754944655e-008 
0 
2.256996518784089e-007 
0 
0 
0 
0 
0 
0 
8.082772175359866e-007 
0 
0 
-0.08405735178100149 
-0.03631219177613015 
-0.00163746003369621 
-0.007253384507810053 
-0.001795333601163269 
-0.04347026077571572 
-0.05217643306402957 
-0.0450561077461577 
-0.003093326747469096 
